0000001011110111
1111001111111110
0000011110110000
1110011101001001
0000011110101000
1111101000011100
1111000001000101
0000010100011110
0000011100101101
1111110111001111
0000000100111111
0000011101111111
0000100110110001
0000000001011111
1111001111101110
1111011111001111
1110111101101010
0000010111101010
0000010010100110
0000101010110101
1111000100000101
1111011001000101
0000001110010001
1111100100110101
1111100000001001
1111110011011001
0000000010001101
1111000000110100
0000110011000101
0000011101100001
1111111010001000
0000100100011111
1111100111000000
1111111100000110
1111100000111010
1111101101000000
0000101110010011
0000010010010001
0000110101000011
1110101001011100
1111101100110001
0000010000111000
0000101001110000
0000000001100100
0000011001110101
0000101011111101
1111110100100111
1111101111010011
1111101111011001
0000010110010010
0000000001101010
0000101100001101
0000000110111111
1111001001000111
0000001100000110
1111100111111111
1111111001001100
0000001110100101
0000010001000011
0000010001101100
1111100011011110
1111100111100001
1111010110111000
0000001010010100
1111111010110001
0000010101011100
1111001111010101
1111110000111010
1111000000101111
0000011011000110
1111010011110001
1111100001010111
0000110000101100
0000001100000100
1111010011110100
0000001001101110
1111110110101001
1111010100010110
0000010110111100
1111101010011000
0000011011100010
0000001010010101
0000110101001101
0000010110101011
0000001001010010
0000011000000010
1111111110000110
0000111000111100
1111110110010111
0000010010111101
0000000000000100
1111010100100001
1111100000010110
1111110111100101
1111100101110000
1111100101001001
1111101001000000
1110110111001001
0000010000111101
1101110000110010
1111100101111101
0000011010000000
1111111010011101
0000000100101010
0000100011011010
0000000100001001
0000011010101011
1111100100100011
1111110110001100
1111111110001001
0000100111110101
0000010000101001
1111111100110010
0000010101110110
0000010100011001
1111000110010111
1111011010000110
1110110110110001
0001000100101100
0000001010101011
1111100101001110
1111100111100011
1111010101001001
0000010010111111
1111111111000110
0000010110101001
0000100111001011
1111000010010011
0000001001100001
0000001110000111
1111100101101110
1110110110001001
0000010101110011
1111100000111101
1110111001101001
1111111110110101
0000000110000000
0000001010011000
0000001001001000
1111110000001000
1111011111110001
0000010001100010
1111111101110111
0000011000101110
0000011111110010
0000000110001101
1111011001110101
0000001110100101
1111100111111011
1111111011100111
1110001100101001
0000001010111100
1110101011111111
1111100101111101
1111101111000100
0000011011001110
0000001000101011
1110111010100001
0000000000111100
0000001010101101
