1111010100001111
0000011111100000
1111100011101100
1111011000011100
1111100011010011
0000111011110011
1111001111101100
1111010000000010
0000100110100011
1111011110001000
1111101110000110
0000011001010101
0000011001000100
0000001001000011
0000001001110001
1111111100011011
0000000000101110
1111001111101100
0000000010001011
1111010011010100
0000011001110001
1111110001101101
0000110001010011
1110111111101001
0000011111111000
0000100000101101
0000001000010000
1111101001100110
1111100001000100
1111111100011111
0000100001101010
0000100010101000
1111111010110010
1111110011101110
1111011101110101
1111011101110001
1111010100010111
1111111100000000
1111111100010011
0000011000011110
0000001101010000
0000011111000010
0000100100011010
0000010010001111
1111100011010011
0000100100010001
0000001100110010
1111101101111000
0000000011001011
1111011111111110
1111111101101101
1111100111110101
1111101110101000
1111111110011011
0000011110101010
0000011100100001
1111100000010001
0000000000100000
1111111001111000
0000010001110010
0000101010111110
0000001110110000
1111100001100110
0000110000011010
0000010110100000
0000000110010100
1111001010111011
0000001000110011
0000010011011011
1111001101101111
0000010000101011
1111000001000100
0000100000011101
1111011010110101
0000100000010101
0000011000010000
1111010111011001
1111100010000111
1111111001000011
0000010100001101
0000000110111101
0000001000010110
0000110000010000
1111110111011101
1111100110111011
1110110101001100
0000011111010011
0000000001100100
1111001100010010
0000011111010101
1111110111000110
0000101110101110
1111110010101011
1111001110000010
1110111000101111
1111111010110000
1110111111111100
0000001010110001
0000011100110001
0000010111000101
1111101001100001
1111110101110011
1110111011011001
1110111100101111
1111110100011010
0000001001011010
0000110010011100
0000000101111100
0000000001011010
0000001100110010
1111100101001010
1111011001101100
0000101000101000
0000011001110110
0000011010111110
1111010101111110
1111010101001001
0000001101100101
1111000101101011
0000110100010100
1111011111001111
1111101010001100
0000000111111010
1111111101101111
1111101101010011
1111110100011010
0000101100000101
0000011000001101
1111110011001110
0000010100001000
1111011001110100
0000000110100011
0000011001011001
1111111000111011
1110111100111110
1111101011111110
1111011110100100
0000010011100001
1111000111010110
0000000001110010
0000100011011110
1111110100000010
0000001001111100
1111010111110101
0000001010011100
0000000001000001
0000011010010010
1111111100001110
0000100001111001
0000000111011001
0000010101101101
1111100100011101
0000000100111001
1111000111011110
1110111111111011
0000001110100010
1111100101010101
0000011100011001
1111111100100111
0000000001110010
