1111101010110000
0000110011101101
0000001001101000
1111001010000111
1111010101111000
1111010011001000
1111101010100001
0001010101100101
1111001010111011
0000000110100111
0000110010001101
1111001011101000
1111100000011001
1111110111100100
0000101100001100
0000011111000110
0001000000111110
1111101111010011
1110011011110101
1111110101111110
1111110101111010
0000101000010000
1111100101101110
0000011100110010
1111010100000110
0001000010111111
1110101110011111
1111100110110000
0000010101010101
1111010011011010
0000111000000110
1110111001010000
0000010011001010
0000001010100000
1111111101110011
1111111111000111
0000111111001001
1111001100010100
1111111111010001
1111110010010001
